TRT-8602-EntropyCalibration2
images: 3b66eddc
/model.0/conv/Conv_output_0: 3e06b485
/model.0/act/Sigmoid_output_0: 3c010a14
/model.0/act/Mul_output_0: 3e16233c
/model.1/conv/Conv_output_0: 3e79fded
/model.1/act/Sigmoid_output_0: 3c010a14
/model.1/act/Mul_output_0: 3e8ee9c1
/model.2/cv1/conv/Conv_output_0: 3e669bba
/model.2/cv1/act/Sigmoid_output_0: 3c010a14
/model.2/cv1/act/Mul_output_0: 3db9e05a
/model.2/Split_output_0: 3db9e05a
/model.2/Split_output_1: 3dc82489
/model.2/m.0/cv1/conv/Conv_output_0: 3d0f153b
/model.2/m.0/cv1/act/Sigmoid_output_0: 3c0076d9
/model.2/m.0/cv1/act/Mul_output_0: 3d10cba7
/model.2/m.0/cv2/conv/Conv_output_0: 3e40eda0
/model.2/m.0/cv2/act/Sigmoid_output_0: 3c010a14
/model.2/m.0/cv2/act/Mul_output_0: 3e361821
/model.2/m.0/Add_output_0: 3e9214bc
/model.2/Concat_output_0: 3e87aca7
/model.2/cv2/conv/Conv_output_0: 3e939cf5
/model.2/cv2/act/Sigmoid_output_0: 3c010a14
/model.2/cv2/act/Mul_output_0: 3d90d3d6
/model.3/conv/Conv_output_0: 3e0ba913
/model.3/act/Sigmoid_output_0: 3c010a14
/model.3/act/Mul_output_0: 3e0f1249
/model.4/cv1/conv/Conv_output_0: 3dc24411
/model.4/cv1/act/Sigmoid_output_0: 3c010a12
/model.4/cv1/act/Mul_output_0: 3dc397f1
/model.4/Split_output_0: 3dc397f1
/model.4/Split_output_1: 3cfe3ebb
/model.4/m.0/cv1/conv/Conv_output_0: 3d096999
/model.4/m.0/cv1/act/Sigmoid_output_0: 3bff3b7b
/model.4/m.0/cv1/act/Mul_output_0: 3cd0a541
/model.4/m.0/cv2/conv/Conv_output_0: 3da617e3
/model.4/m.0/cv2/act/Sigmoid_output_0: 3c10d14e
/model.4/m.0/cv2/act/Mul_output_0: 3d919db1
/model.4/m.0/Add_output_0: 3db8bcdf
/model.4/Concat_output_0: 3dc397f1
/model.4/cv2/conv/Conv_output_0: 3da1a5b2
/model.4/cv2/act/Sigmoid_output_0: 3c00d9b5
/model.4/cv2/act/Mul_output_0: 3cd167b4
/model.5/conv/Conv_output_0: 3d96dcce
/model.5/act/Sigmoid_output_0: 3c01107c
/model.5/act/Mul_output_0: 3d8fe944
/model.6/cv1/conv/Conv_output_0: 3de46263
/model.6/cv1/act/Sigmoid_output_0: 3c010a10
/model.6/cv1/act/Mul_output_0: 3dc2749c
/model.6/Split_output_0: 3e0fd9d6
/model.6/Split_output_1: 3d907721
/model.6/m.0/cv1/conv/Conv_output_0: 3d7b0772
/model.6/m.0/cv2/conv/Conv_output_0: 3d77dfc8
/model.6/m.0/cv1/act/Sigmoid_output_0: 3c1eb998
/model.6/m.0/cv2/act/Sigmoid_output_0: 3c00fafc
/model.6/m.0/cv1/act/Mul_output_0: 3d6929db
/model.6/m.0/cv2/act/Mul_output_0: 3ba61665
/model.6/m.0/m/m.0/cv1/conv/Conv_output_0: 3d815a72
/model.6/m.0/m/m.0/cv1/act/Sigmoid_output_0: 3c0033ba
/model.6/m.0/m/m.0/cv1/act/Mul_output_0: 3cb15b27
/model.6/m.0/m/m.0/cv2/conv/Conv_output_0: 3dbb0a2f
/model.6/m.0/m/m.0/cv2/act/Sigmoid_output_0: 3c07d46e
/model.6/m.0/m/m.0/cv2/act/Mul_output_0: 3d22a9d7
/model.6/m.0/m/m.0/Add_output_0: 3dbc819d
/model.6/m.0/m/m.1/cv1/conv/Conv_output_0: 3d5f6539
/model.6/m.0/m/m.1/cv1/act/Sigmoid_output_0: 3bfe030a
/model.6/m.0/m/m.1/cv1/act/Mul_output_0: 3c72be58
/model.6/m.0/m/m.1/cv2/conv/Conv_output_0: 3dd7b4c7
/model.6/m.0/m/m.1/cv2/act/Sigmoid_output_0: 3c02141b
/model.6/m.0/m/m.1/cv2/act/Mul_output_0: 3dc59948
/model.6/m.0/m/m.1/Add_output_0: 3e4ec716
/model.6/m.0/Concat_output_0: 3dc9e8b9
/model.6/m.0/cv3/conv/Conv_output_0: 3e1d180e
/model.6/m.0/cv3/act/Sigmoid_output_0: 3c010a14
/model.6/m.0/cv3/act/Mul_output_0: 3d3f3145
/model.6/Concat_output_0: 3d90ac8a
/model.6/cv2/conv/Conv_output_0: 3da54954
/model.6/cv2/act/Sigmoid_output_0: 3c010a00
/model.6/cv2/act/Mul_output_0: 3d66055d
/model.7/conv/Conv_output_0: 3dacf7a3
/model.7/act/Sigmoid_output_0: 3c010a14
/model.7/act/Mul_output_0: 3d680a94
/model.8/cv1/conv/Conv_output_0: 3dbe62bd
/model.8/cv1/act/Sigmoid_output_0: 3c010a11
/model.8/cv1/act/Mul_output_0: 3d6ac38d
/model.8/Split_output_0: 3d90fd99
/model.8/Split_output_1: 3d26d0b0
/model.8/m.0/cv1/conv/Conv_output_0: 3d5e2225
/model.8/m.0/cv2/conv/Conv_output_0: 3c07928f
/model.8/m.0/cv1/act/Sigmoid_output_0: 3c0108c2
/model.8/m.0/cv2/act/Sigmoid_output_0: 3b15ef43
/model.8/m.0/cv1/act/Mul_output_0: 3d01496e
/model.8/m.0/cv2/act/Mul_output_0: 3924771a
/model.8/m.0/m/m.0/cv1/conv/Conv_output_0: 3db2dd66
/model.8/m.0/m/m.0/cv1/act/Sigmoid_output_0: 3c010a12
/model.8/m.0/m/m.0/cv1/act/Mul_output_0: 3d6706ab
/model.8/m.0/m/m.0/cv2/conv/Conv_output_0: 3da153cb
/model.8/m.0/m/m.0/cv2/act/Sigmoid_output_0: 3c0109f1
/model.8/m.0/m/m.0/cv2/act/Mul_output_0: 3d921d8c
/model.8/m.0/m/m.0/Add_output_0: 3d90d70b
/model.8/m.0/m/m.1/cv1/conv/Conv_output_0: 3d904f14
/model.8/m.0/m/m.1/cv1/act/Sigmoid_output_0: 3c0109fa
/model.8/m.0/m/m.1/cv1/act/Mul_output_0: 3d91b485
/model.8/m.0/m/m.1/cv2/conv/Conv_output_0: 3e0174ca
/model.8/m.0/m/m.1/cv2/act/Sigmoid_output_0: 3c010a14
/model.8/m.0/m/m.1/cv2/act/Mul_output_0: 3dc16355
/model.8/m.0/m/m.1/Add_output_0: 3e26cf16
/model.8/m.0/Concat_output_0: 3d6f5cb9
/model.8/m.0/cv3/conv/Conv_output_0: 3defc808
/model.8/m.0/cv3/act/Sigmoid_output_0: 3c041828
/model.8/m.0/cv3/act/Mul_output_0: 3d42ecab
/model.8/Concat_output_0: 3d6ea4af
/model.8/cv2/conv/Conv_output_0: 3dc7b46b
/model.8/cv2/act/Sigmoid_output_0: 3c010a05
/model.8/cv2/act/Mul_output_0: 3d924dde
/model.9/cv1/conv/Conv_output_0: 3da12cf7
/model.9/cv1/act/Sigmoid_output_0: 3c01110c
/model.9/cv1/act/Mul_output_0: 3d9190b8
/model.9/m/MaxPool_output_0: 3d9190b8
/model.9/m_1/MaxPool_output_0: 3d9190b8
/model.9/m_2/MaxPool_output_0: 3d9190b8
/model.9/Concat_output_0: 3dc107cf
/model.9/cv2/conv/Conv_output_0: 3dbb5e80
/model.9/cv2/act/Sigmoid_output_0: 3c00d102
/model.9/cv2/act/Mul_output_0: 3d44840a
/model.10/cv1/conv/Conv_output_0: 3e1f3388
/model.10/cv1/act/Sigmoid_output_0: 3c010a14
/model.10/cv1/act/Mul_output_0: 3dc23d9a
/model.10/Split_output_0: 3dc0e59e
/model.10/Split_output_1: 3dc1ec84
/model.10/m/m.0/attn/qkv/conv/Conv_output_0: 3f0357c3
/model.10/m/m.0/attn/Reshape_output_0: 3f0357c3
/model.10/m/m.0/attn/Split_output_0: 3db49589
/model.10/m/m.0/attn/Split_output_1: 3f0fa63a
/model.10/m/m.0/attn/Split_output_2: 3e0ebda1
/model.10/m/m.0/attn/Transpose_output_0: 3db49589
/model.10/m/m.0/attn/Reshape_2_output_0: 3e0ebda1
/model.10/m/m.0/attn/MatMul_output_0: 429a3d98
/model.10/m/m.0/attn/pe/conv/Conv_output_0: 3d6a0ead
(Unnamed Layer* 205) [Shuffle]_output: 3ab67d3d
/model.10/m/m.0/attn/Mul_1_output_0: 415a2110
(Unnamed Layer* 207) [Softmax]_output: 391f4fd6
/model.10/m/m.0/attn/Transpose_1_output_0: 391f4fd6
/model.10/m/m.0/attn/MatMul_1_output_0: 3d641546
/model.10/m/m.0/attn/Reshape_1_output_0: 3d641546
/model.10/m/m.0/attn/Add_output_0: 3d9df521
/model.10/m/m.0/attn/proj/conv/Conv_output_0: 3e03de91
/model.10/m/m.0/Add_output_0: 3e6d3824
/model.10/m/m.0/ffn/ffn.0/conv/Conv_output_0: 3d4b0769
/model.10/m/m.0/ffn/ffn.0/act/Sigmoid_output_0: 3af3201c
/model.10/m/m.0/ffn/ffn.0/act/Mul_output_0: 3b9790cc
/model.10/m/m.0/ffn/ffn.1/conv/Conv_output_0: 3d85df05
/model.10/m/m.0/Add_1_output_0: 3e8c336c
/model.10/Concat_output_0: 3e8c336c
/model.10/cv2/conv/Conv_output_0: 3dec19c3
/model.10/cv2/act/Sigmoid_output_0: 3c010a0c
/model.10/cv2/act/Mul_output_0: 3d277d95
/model.11/Resize_output_0: 3d277d95
/model.12/Concat_output_0: 3d274592
/model.13/cv1/conv/Conv_output_0: 3dc929c4
/model.13/cv1/act/Sigmoid_output_0: 3c00c98d
/model.13/cv1/act/Mul_output_0: 3d428990
/model.13/Split_output_0: 3d428990
/model.13/Split_output_1: 3cbe599b
/model.13/m.0/cv1/conv/Conv_output_0: 3d56abf7
/model.13/m.0/cv1/act/Sigmoid_output_0: 3bfd3a08
/model.13/m.0/cv1/act/Mul_output_0: 3ca4e1a0
/model.13/m.0/cv2/conv/Conv_output_0: 3dd7cdbe
/model.13/m.0/cv2/act/Sigmoid_output_0: 3c010a14
/model.13/m.0/cv2/act/Mul_output_0: 3dc0c7fb
/model.13/m.0/Add_output_0: 3dbfc9e7
/model.13/Concat_output_0: 3dc06d12
/model.13/cv2/conv/Conv_output_0: 3d8be8b9
/model.13/cv2/act/Sigmoid_output_0: 3c0058a4
/model.13/cv2/act/Mul_output_0: 3d0050bc
/model.14/Resize_output_0: 3d0050bc
/model.15/Concat_output_0: 3cd20c02
/model.16/cv1/conv/Conv_output_0: 3da435d7
/model.16/cv1/act/Sigmoid_output_0: 3c010474
/model.16/cv1/act/Mul_output_0: 3d6856ca
/model.16/Split_output_0: 3d679a77
/model.16/Split_output_1: 3d23ec2a
/model.16/m.0/cv1/conv/Conv_output_0: 3d32f5de
/model.16/m.0/cv1/act/Sigmoid_output_0: 3c00f756
/model.16/m.0/cv1/act/Mul_output_0: 3cb27279
/model.16/m.0/cv2/conv/Conv_output_0: 3de47d9d
/model.16/m.0/cv2/act/Sigmoid_output_0: 3c010a14
/model.16/m.0/cv2/act/Mul_output_0: 3dc25ebf
/model.16/m.0/Add_output_0: 3de68da9
/model.16/Concat_output_0: 3dc06578
/model.16/cv2/conv/Conv_output_0: 3d990df1
/model.16/cv2/act/Sigmoid_output_0: 3c01099e
/model.16/cv2/act/Mul_output_0: 3cffa161
/model.17/conv/Conv_output_0: 3dce65c2
/model.23/cv2.0/cv2.0.0/conv/Conv_output_0: 3ea3d9c8
/model.23/cv3.0/cv3.0.0/cv3.0.0.0/conv/Conv_output_0: 3df6d753
/model.17/act/Sigmoid_output_0: 3c00f9ee
/model.23/cv2.0/cv2.0.0/act/Sigmoid_output_0: 3c010a14
/model.23/cv3.0/cv3.0.0/cv3.0.0.0/act/Sigmoid_output_0: 3c010a14
/model.17/act/Mul_output_0: 3d66664f
/model.23/cv2.0/cv2.0.0/act/Mul_output_0: 3d2565a2
/model.23/cv3.0/cv3.0.0/cv3.0.0.0/act/Mul_output_0: 3e1087df
/model.18/Concat_output_0: 3d43b605
/model.23/cv2.0/cv2.0.1/conv/Conv_output_0: 3e6a29bd
/model.23/cv3.0/cv3.0.0/cv3.0.0.1/conv/Conv_output_0: 3e132970
/model.19/cv1/conv/Conv_output_0: 3df7273c
/model.23/cv2.0/cv2.0.1/act/Sigmoid_output_0: 3c010a14
/model.23/cv3.0/cv3.0.0/cv3.0.0.1/act/Sigmoid_output_0: 3c010a14
/model.19/cv1/act/Sigmoid_output_0: 3c010a14
/model.23/cv2.0/cv2.0.1/act/Mul_output_0: 3e15dc7d
/model.23/cv3.0/cv3.0.0/cv3.0.0.1/act/Mul_output_0: 3dc8ad35
/model.19/cv1/act/Mul_output_0: 3dc295cd
/model.23/cv2.0/cv2.0.2/Conv_output_0: 3fa4b462
/model.23/cv3.0/cv3.0.1/cv3.0.1.0/conv/Conv_output_0: 3df8e2a8
/model.19/Split_output_0: 3dc295cd
/model.19/Split_output_1: 3cd4265c
/model.23/cv3.0/cv3.0.1/cv3.0.1.0/act/Sigmoid_output_0: 3c010a14
/model.19/m.0/cv1/conv/Conv_output_0: 3d9a8939
/model.23/cv3.0/cv3.0.1/cv3.0.1.0/act/Mul_output_0: 3d93eff9
/model.19/m.0/cv1/act/Sigmoid_output_0: 3c00e97e
/model.23/cv3.0/cv3.0.1/cv3.0.1.1/conv/Conv_output_0: 3ddf2ef4
/model.19/m.0/cv1/act/Mul_output_0: 3d255cc1
/model.23/cv3.0/cv3.0.1/cv3.0.1.1/act/Sigmoid_output_0: 3c00f9f4
/model.19/m.0/cv2/conv/Conv_output_0: 3de547c7
/model.23/cv3.0/cv3.0.1/cv3.0.1.1/act/Mul_output_0: 3d68bab3
/model.19/m.0/cv2/act/Sigmoid_output_0: 3c0213df
/model.23/cv3.0/cv3.0.2/Conv_output_0: 3e820673
/model.19/m.0/cv2/act/Mul_output_0: 3d92d03b
/model.23/Concat_output_0: 3fa53520
/model.19/m.0/Add_output_0: 3dbf5ff2
/model.19/Concat_output_0: 3dc295cd
/model.19/cv2/conv/Conv_output_0: 3de8e4a8
/model.19/cv2/act/Sigmoid_output_0: 3c010a14
/model.23/Range_output_0: 3f1f4871
(Unnamed Layer* 346) [Shuffle]_output: 3c010a14
/model.23/Range_1_output_0: 3f1f4871
(Unnamed Layer* 355) [Shuffle]_output: 3c010a14
/model.19/cv2/act/Mul_output_0: 3d4770d1
/model.23/Reshape_output_0: 3fa53520
(Unnamed Layer* 360) [Shuffle]_output: 3b810a14
/model.23/Reshape_4_output_0: 3f204a85
(Unnamed Layer* 362) [Shuffle]_output: 3b810a14
/model.23/Reshape_3_output_0: 3f204a85
/model.20/conv/Conv_output_0: 3dba8028
/model.23/cv2.1/cv2.1.0/conv/Conv_output_0: 3e722a9d
/model.23/cv3.1/cv3.1.0/cv3.1.0.0/conv/Conv_output_0: 3e1c9992
(Unnamed Layer* 369) [Constant]_output: 0
(Unnamed Layer* 370) [Shuffle]_output: 0
/model.23/ConstantOfShape_output_0: 0
/model.23/Reshape_5_output_0: 3f204a85
/model.23/Reshape_6_output_0: 3f204a85
/model.20/act/Sigmoid_output_0: 3c231615
/model.23/cv2.1/cv2.1.0/act/Sigmoid_output_0: 3c010a14
/model.23/cv3.1/cv3.1.0/cv3.1.0.0/act/Sigmoid_output_0: 3c010a14
(Unnamed Layer* 380) [Shuffle]_output: 3d810a14
/model.23/Add_2_output_0: 3d810a14
/model.20/act/Mul_output_0: 3d8c9ef8
/model.23/cv2.1/cv2.1.0/act/Mul_output_0: 3d998dc5
/model.23/cv3.1/cv3.1.0/cv3.1.0.0/act/Mul_output_0: 3e12c846
/model.23/Expand_output_0: 3f204a85
/model.23/Expand_1_output_0: 3f204a85
/model.21/Concat_output_0: 3d42131a
/model.23/cv2.1/cv2.1.1/conv/Conv_output_0: 3e7537b8
/model.23/cv3.1/cv3.1.0/cv3.1.0.1/conv/Conv_output_0: 3df5931b
/model.23/Unsqueeze_3_output_0: 3f204a85
/model.23/Unsqueeze_4_output_0: 3f204a85
/model.22/cv1/conv/Conv_output_0: 3dc6b198
/model.23/cv2.1/cv2.1.1/act/Sigmoid_output_0: 3c010a14
/model.23/cv3.1/cv3.1.0/cv3.1.0.1/act/Sigmoid_output_0: 3c010a12
/model.23/Concat_10_output_0: 3f204a85
/model.22/cv1/act/Sigmoid_output_0: 3c01121f
/model.23/cv2.1/cv2.1.1/act/Mul_output_0: 3c804649
/model.23/cv3.1/cv3.1.0/cv3.1.0.1/act/Mul_output_0: 3d90aaf2
/model.23/Reshape_7_output_0: 3f204a85
/model.22/cv1/act/Mul_output_0: 3d612db7
/model.23/cv2.1/cv2.1.2/Conv_output_0: 3fa25b91
/model.23/cv3.1/cv3.1.1/cv3.1.1.0/conv/Conv_output_0: 3e09efe0
/model.22/Split_output_0: 3d612db7
/model.22/Split_output_1: 3cbfa5de
/model.23/cv3.1/cv3.1.1/cv3.1.1.0/act/Sigmoid_output_0: 3c010a14
/model.22/m.0/cv1/conv/Conv_output_0: 3d421ebb
/model.22/m.0/cv2/conv/Conv_output_0: 3d701f56
/model.23/cv3.1/cv3.1.1/cv3.1.1.0/act/Mul_output_0: 3e10cf83
/model.22/m.0/cv1/act/Sigmoid_output_0: 3c00244c
/model.22/m.0/cv2/act/Sigmoid_output_0: 3b17bf2b
/model.23/cv3.1/cv3.1.1/cv3.1.1.1/conv/Conv_output_0: 3da49b2b
/model.22/m.0/cv1/act/Mul_output_0: 3cea409b
/model.22/m.0/cv2/act/Mul_output_0: 3b0fbb4d
/model.23/cv3.1/cv3.1.1/cv3.1.1.1/act/Sigmoid_output_0: 3c0106bf
/model.22/m.0/m/m.0/cv1/conv/Conv_output_0: 3d80c86f
/model.23/cv3.1/cv3.1.1/cv3.1.1.1/act/Mul_output_0: 3d6621d5
/model.22/m.0/m/m.0/cv1/act/Sigmoid_output_0: 3c167148
/model.23/cv3.1/cv3.1.2/Conv_output_0: 3ea5f1f0
/model.22/m.0/m/m.0/cv1/act/Mul_output_0: 3ce96253
/model.23/Concat_1_output_0: 3fa25b91
/model.22/m.0/m/m.0/cv2/conv/Conv_output_0: 3dbeb10d
/model.23/Reshape_1_output_0: 3fa25b91
/model.22/m.0/m/m.0/cv2/act/Sigmoid_output_0: 3c0110c7
/model.22/m.0/m/m.0/cv2/act/Mul_output_0: 3d6acc36
/model.22/m.0/m/m.0/Add_output_0: 3d8f6e49
/model.23/Range_2_output_0: 3e9d4449
(Unnamed Layer* 477) [Shuffle]_output: 3c010a14
/model.23/Range_3_output_0: 3e9d4449
(Unnamed Layer* 486) [Shuffle]_output: 3c010a14
/model.22/m.0/m/m.1/cv1/conv/Conv_output_0: 3d85534a
(Unnamed Layer* 489) [Shuffle]_output: 3b810a14
/model.23/Reshape_9_output_0: 3e9f4871
(Unnamed Layer* 491) [Shuffle]_output: 3b810a14
/model.23/Reshape_8_output_0: 3e9f4871
/model.22/m.0/m/m.1/cv1/act/Sigmoid_output_0: 3c0100df
(Unnamed Layer* 495) [Constant]_output: 0
(Unnamed Layer* 496) [Shuffle]_output: 0
/model.23/ConstantOfShape_1_output_0: 0
/model.23/Reshape_10_output_0: 3e9f4871
/model.23/Reshape_11_output_0: 3e9f4871
/model.22/m.0/m/m.1/cv1/act/Mul_output_0: 3d1006ea
(Unnamed Layer* 504) [Shuffle]_output: 3e010a14
/model.23/Add_5_output_0: 3e010a14
/model.22/m.0/m/m.1/cv2/conv/Conv_output_0: 3df4faa8
/model.23/Expand_2_output_0: 3e9f4871
/model.23/Expand_3_output_0: 3e9f4871
/model.22/m.0/m/m.1/cv2/act/Sigmoid_output_0: 3c0111d4
/model.23/Unsqueeze_6_output_0: 3e9f4871
/model.23/Unsqueeze_7_output_0: 3e9f4871
/model.22/m.0/m/m.1/cv2/act/Mul_output_0: 3dbfa143
/model.23/Concat_15_output_0: 3e9f4871
/model.22/m.0/m/m.1/Add_output_0: 3e1e4a75
/model.23/Reshape_12_output_0: 3e9f4871
/model.22/m.0/Concat_output_0: 3d6ffecd
/model.22/m.0/cv3/conv/Conv_output_0: 3daf4ec5
/model.22/m.0/cv3/act/Sigmoid_output_0: 3c161c03
/model.22/m.0/cv3/act/Mul_output_0: 3d6a300b
/model.22/Concat_output_0: 3d670a02
/model.22/cv2/conv/Conv_output_0: 3db9325e
/model.22/cv2/act/Sigmoid_output_0: 3c010a14
/model.22/cv2/act/Mul_output_0: 3d9777a0
/model.23/cv2.2/cv2.2.0/conv/Conv_output_0: 3dd5eaa3
/model.23/cv3.2/cv3.2.0/cv3.2.0.0/conv/Conv_output_0: 3e0163d6
/model.23/cv2.2/cv2.2.0/act/Sigmoid_output_0: 3c011130
/model.23/cv3.2/cv3.2.0/cv3.2.0.0/act/Sigmoid_output_0: 3c010a14
/model.23/cv2.2/cv2.2.0/act/Mul_output_0: 3dc48b9f
/model.23/cv3.2/cv3.2.0/cv3.2.0.0/act/Mul_output_0: 3d673434
/model.23/cv2.2/cv2.2.1/conv/Conv_output_0: 3e64d5ad
/model.23/cv3.2/cv3.2.0/cv3.2.0.1/conv/Conv_output_0: 3d98176b
/model.23/cv2.2/cv2.2.1/act/Sigmoid_output_0: 3be3d67b
/model.23/cv3.2/cv3.2.0/cv3.2.0.1/act/Sigmoid_output_0: 3c010f7b
/model.23/cv2.2/cv2.2.1/act/Mul_output_0: 3c31ea35
/model.23/cv3.2/cv3.2.0/cv3.2.0.1/act/Mul_output_0: 3d93328d
/model.23/cv2.2/cv2.2.2/Conv_output_0: 3e1a014e
/model.23/cv3.2/cv3.2.1/cv3.2.1.0/conv/Conv_output_0: 3da332c6
/model.23/cv3.2/cv3.2.1/cv3.2.1.0/act/Sigmoid_output_0: 3c2be552
/model.23/cv3.2/cv3.2.1/cv3.2.1.0/act/Mul_output_0: 3d966ac8
/model.23/cv3.2/cv3.2.1/cv3.2.1.1/conv/Conv_output_0: 3e37ba12
/model.23/cv3.2/cv3.2.1/cv3.2.1.1/act/Sigmoid_output_0: 3c010a14
/model.23/cv3.2/cv3.2.1/cv3.2.1.1/act/Mul_output_0: 3e10de6b
/model.23/cv3.2/cv3.2.2/Conv_output_0: 3ec59bd5
/model.23/Concat_2_output_0: 3ebd5f01
/model.23/Reshape_2_output_0: 3ebd5f01
/model.23/Concat_6_output_0: 3faec34e
/model.23/Split_1_output_0: 3fa9bbd8
/model.23/Split_1_output_1: 3eab0613
/model.23/Range_4_output_0: 3e193bf8
(Unnamed Layer* 600) [Shuffle]_output: 3c010a14
/model.23/Range_5_output_0: 3e193bf8
(Unnamed Layer* 609) [Shuffle]_output: 3c010a14
/model.23/Sigmoid_output_0: 39adbecf
(Unnamed Layer* 613) [Shuffle]_output: 3b810a14
/model.23/Reshape_14_output_0: 3e1d4449
(Unnamed Layer* 615) [Shuffle]_output: 3b810a14
/model.23/Reshape_13_output_0: 3e1d4449
(Unnamed Layer* 620) [Constant]_output: 0
(Unnamed Layer* 621) [Shuffle]_output: 0
/model.23/ConstantOfShape_2_output_0: 0
/model.23/Reshape_15_output_0: 3e1d4449
/model.23/Reshape_16_output_0: 3e1d4449
(Unnamed Layer* 630) [Shuffle]_output: 3e810a14
/model.23/Add_8_output_0: 3e810a14
/model.23/Concat_23_output_0: 3e810a14
/model.23/dfl/Reshape_output_0: 3fa9bbd8
/model.23/Expand_4_output_0: 3e1d4449
/model.23/Expand_5_output_0: 3e1d4449
/model.23/Transpose_1_output_0: 3e810a14
/model.23/dfl/Transpose_output_0: 3fa9bbd8
/model.23/Unsqueeze_9_output_0: 3e1d4449
/model.23/Unsqueeze_10_output_0: 3e1d4449
(Unnamed Layer* 673) [Softmax]_output: 3be1d3a7
/model.23/Concat_20_output_0: 3e1d4449
/model.23/dfl/conv/Conv_output_0: 3df1f2e7
/model.23/Reshape_17_output_0: 3e1d4449
/model.23/dfl/Reshape_1_output_0: 3df1f2e7
/model.23/Concat_22_output_0: 3f204a85
/model.23/Slice_output_0: 3df1f2e7
/model.23/Slice_1_output_0: 3d93dea0
/model.23/Transpose_output_0: 3f204a85
/model.23/Unsqueeze_12_output_0: 3f204a85
/model.23/Sub_output_0: 3f1f5737
/model.23/Add_10_output_0: 3f2180ea
/model.23/Add_11_output_0: 3fa06b57
/model.23/Sub_1_output_0: 3e1234a8
(Unnamed Layer* 743) [Shuffle]_output: 3c810a14
/model.23/Div_1_output_0: 3f206b57
/model.23/Concat_24_output_0: 3f206b57
(Unnamed Layer* 749) [Shuffle]_output: 3e810a14
/model.23/Mul_5_output_0: 40a2a6b1
output0: 40a2a6b1
